encog,BasicNetwork,java,3.4.0,1,1549011876959
[BASIC]
[BASIC:PARAMS]
[BASIC:NETWORK]
beginTraining=0
connectionLimit=0
contextTargetOffset=0,0,0
contextTargetSize=0,0,0
endTraining=2
hasContext=f
inputCount=4
layerCounts=4,8,5
layerFeedCounts=4,7,4
layerContextCount=0,0,0
layerIndex=0,4,12
output=0.7897697775,-0.4093295807,-0.9998836757,-1,0.8474456805,-0.2366377403,-0.9973602461,-0.9999999955,-0.4764290146,0.461275072,-0.0649442099,1,0,-0.6666666667,-0.4545454545,0.6949152542,1
outputCount=4
weightIndex=0,32,67
weights=-1.1570349988,-0.8578879992,-1.0549159925,-3.7244521995,0.9574302229,-2.0931447828,0.896591315,-1.4483568363,1.4900254439,0.7366819855,0.6613521579,-0.609388338,-2.5552763401,1.2462544768,-0.6792334441,-3.3093626419,-2.155033701,-3.0549866186,-4.46456694,6.3689156226,-0.7553336123,-4.3167151702,-0.2075796591,-0.2387765659,-5.3558179654,0.3870219651,2.1254188856,-0.8070693427,16.3409581377,-0.0181269232,-3.5894371967,-0.6128690116,18.1886181385,-2.1919701152,0.7652143515,-0.5972333161,0.5485570992,2.8445160284,-3.1372144242,-6.0940916584,-12.1412546646,3.3344157392,-1.5344530226,4.1146550246,1.3873868104,1.3560253856,-0.8830370237,3.4646973293,0.45451005,19.2628819453,-1.4746031138,0.1239027404,0.5654616795,-0.3474956993,-0.7700441522,-0.2617909991,-0.9181158122,0.2756671819,0.0437957183,-7.3920564965,-0.4480327205,-2.520553979,-1.2363459836,-0.7189965057,1.2558119854,-0.5462053441,0.4060233037
biasActivation=0,1,1
[BASIC:ACTIVATION]
"org.encog.engine.network.activation.ActivationTANH"
"org.encog.engine.network.activation.ActivationTANH"
"org.encog.engine.network.activation.ActivationLinear"
